TRT-8600-EntropyCalibration2
images: 3c00f9f4
/model.0/act/Mul_output_0: 3e6c9314
/model.1/act/Mul_output_0: 3e870ad0
/model.2/cv1/act/Mul_output_0: 3df899ac
/model.2/m/m.0/cv1/act/Mul_output_0: 3d600600
/model.2/m/m.0/cv2/act/Mul_output_0: 3df899ac
/model.2/concat/Concat_output_0: 3e0798da
/model.2/cv3/act/Mul_output_0: 3d8a8ed6
/model.3/act/Mul_output_0: 3d1f4d8b
/model.4/cv1/act/Mul_output_0: 3cad75d6
/model.4/m/m.0/cv1/act/Mul_output_0: 3d1e8b8f
/model.4/m/m.0/cv2/act/Mul_output_0: 3cad75d6
/model.4/m/m.0/addop/Add_output_0: 3d1fe9f6
/model.4/m/m.1/cv1/act/Mul_output_0: 3d0cf259
/model.4/m/m.1/cv2/act/Mul_output_0: 3d1fe9f6
/model.4/concat/Concat_output_0: 3d385294
/model.4/cv3/act/Mul_output_0: 3d1e8573
/model.5/act/Mul_output_0: 3d1fcfaf
/model.6/cv1/act/Mul_output_0: 3cbc136d
/model.6/m/m.0/cv1/act/Mul_output_0: 3d3b1118
/model.6/m/m.0/cv2/act/Mul_output_0: 3cbc136d
/model.6/m/m.0/addop/Add_output_0: 3d37c306
/model.6/m/m.1/cv1/act/Mul_output_0: 3d38d033
/model.6/m/m.1/cv2/act/Mul_output_0: 3d37c306
/model.6/m/m.1/addop/Add_output_0: 3d5c7732
/model.6/m/m.2/cv1/act/Mul_output_0: 3d38782a
/model.6/m/m.2/cv2/act/Mul_output_0: 3d5c7732
/model.6/concat/Concat_output_0: 3d8626e4
/model.6/cv3/act/Mul_output_0: 3d389eb3
/model.7/act/Mul_output_0: 3d206224
/model.8/cv1/act/Mul_output_0: 3d5ee006
/model.8/m/m.0/cv1/act/Mul_output_0: 3d8a77c1
/model.8/m/m.0/cv2/act/Mul_output_0: 3d5ee006
/model.8/concat/Concat_output_0: 3d8858a8
/model.8/cv3/act/Mul_output_0: 3d392c50
/model.9/concat/Concat_output_0: 3d5d4052
/model.9/cv2/act/Mul_output_0: 3d3871ae
/model.12/Concat_output_0: 3d389eb3
/model.13/cv1/act/Mul_output_0: 3cf93bd0
/model.13/m/m.0/cv1/act/Mul_output_0: 3d0bcf4f
/model.13/concat/Concat_output_0: 3d0ccfd7
/model.13/cv3/act/Mul_output_0: 3d394a51
/model.16/Concat_output_0: 3d1e8573
/model.17/cv1/act/Mul_output_0: 3c8d5e4f
/model.17/m/m.0/cv1/act/Mul_output_0: 3cad80bb
/model.17/concat/Concat_output_0: 3d397851
/model.17/cv3/act/Mul_output_0: 3e13b4da
/model.19/Concat_output_0: 3d38497e
/model.20/cv1/act/Mul_output_0: 3d1fa00a
/model.20/m/m.0/cv1/act/Mul_output_0: 3cfa3e12
/model.20/concat/Concat_output_0: 3d3d40bf
/model.20/cv3/act/Mul_output_0: 3e185ae6
/model.22/Concat_output_0: 3d5d482e
/model.23/cv1/act/Mul_output_0: 3d619c6d
/model.23/m/m.0/cv1/act/Mul_output_0: 3d5afff6
/model.23/concat/Concat_output_0: 3d62496d
/model.23/cv3/act/Mul_output_0: 3e0230f1
/model.2/m/m.0/addop/Add_output_0: 3e0798da
/model.2/cv2/act/Mul_output_0: 3e0798da
/model.4/m/m.1/addop/Add_output_0: 3d385294
/model.4/cv2/act/Mul_output_0: 3d385294
/model.6/m/m.2/addop/Add_output_0: 3d8626e4
/model.6/cv2/act/Mul_output_0: 3d8626e4
/model.8/m/m.0/addop/Add_output_0: 3d8858a8
/model.8/cv2/act/Mul_output_0: 3d8858a8
/model.9/cv1/act/Mul_output_0: 3d5d4052
/model.9/m/MaxPool_output_0: 3d5d4052
/model.9/m_1/MaxPool_output_0: 3d5d4052
/model.9/m_2/MaxPool_output_0: 3d5d4052
/model.13/m/m.0/cv2/act/Mul_output_0: 3d0ccfd7
/model.13/cv2/act/Mul_output_0: 3d0ccfd7
/model.17/m/m.0/cv2/act/Mul_output_0: 3d397851
/model.17/cv2/act/Mul_output_0: 3d397851
/model.18/act/Mul_output_0: 3d38497e
/model.14/act/Mul_output_0: 3d38497e
/model.20/m/m.0/cv2/act/Mul_output_0: 3d3d40bf
/model.20/cv2/act/Mul_output_0: 3d3d40bf
/model.21/act/Mul_output_0: 3d5d482e
/model.10/act/Mul_output_0: 3d5d482e
/model.23/m/m.0/cv2/act/Mul_output_0: 3d62496d
/model.23/cv2/act/Mul_output_0: 3d62496d
/model.23/cv3/conv/Conv_output_0: 3e0230f1
/model.23/cv3/act/Sigmoid_output_0: 3e0230f1
/model.23/m/m.0/cv2/conv/Conv_output_0: 3d62496d
/model.23/m/m.0/cv2/act/Sigmoid_output_0: 3d62496d
/model.23/m/m.0/cv1/conv/Conv_output_0: 3d5afff6
/model.23/m/m.0/cv1/act/Sigmoid_output_0: 3d5afff6
/model.23/cv2/conv/Conv_output_0: 3d62496d
/model.23/cv2/act/Sigmoid_output_0: 3d62496d
/model.23/cv1/conv/Conv_output_0: 3d619c6d
/model.23/cv1/act/Sigmoid_output_0: 3d619c6d
/model.21/conv/Conv_output_0: 3d5d482e
/model.21/act/Sigmoid_output_0: 3d5d482e
/model.20/cv3/conv/Conv_output_0: 3e185ae6
/model.20/cv3/act/Sigmoid_output_0: 3e185ae6
/model.20/m/m.0/cv2/conv/Conv_output_0: 3d3d40bf
/model.20/m/m.0/cv2/act/Sigmoid_output_0: 3d3d40bf
/model.20/m/m.0/cv1/conv/Conv_output_0: 3cfa3e12
/model.20/m/m.0/cv1/act/Sigmoid_output_0: 3cfa3e12
/model.20/cv2/conv/Conv_output_0: 3d3d40bf
/model.20/cv2/act/Sigmoid_output_0: 3d3d40bf
/model.20/cv1/conv/Conv_output_0: 3d1fa00a
/model.20/cv1/act/Sigmoid_output_0: 3d1fa00a
/model.18/conv/Conv_output_0: 3d38497e
/model.18/act/Sigmoid_output_0: 3d38497e
/model.17/cv3/conv/Conv_output_0: 3e13b4da
/model.17/cv3/act/Sigmoid_output_0: 3e13b4da
/model.17/m/m.0/cv2/conv/Conv_output_0: 3d397851
/model.17/m/m.0/cv2/act/Sigmoid_output_0: 3d397851
/model.17/m/m.0/cv1/conv/Conv_output_0: 3cad80bb
/model.17/m/m.0/cv1/act/Sigmoid_output_0: 3cad80bb
/model.17/cv2/conv/Conv_output_0: 3d397851
/model.17/cv2/act/Sigmoid_output_0: 3d397851
/model.17/cv1/conv/Conv_output_0: 3c8d5e4f
/model.17/cv1/act/Sigmoid_output_0: 3c8d5e4f
/model.15/Resize_output_0: 3d1e8573
/model.14/conv/Conv_output_0: 3d38497e
/model.14/act/Sigmoid_output_0: 3d38497e
/model.13/cv3/conv/Conv_output_0: 3d394a51
/model.13/cv3/act/Sigmoid_output_0: 3d394a51
/model.13/m/m.0/cv2/conv/Conv_output_0: 3d0ccfd7
/model.13/m/m.0/cv2/act/Sigmoid_output_0: 3d0ccfd7
/model.13/m/m.0/cv1/conv/Conv_output_0: 3d0bcf4f
/model.13/m/m.0/cv1/act/Sigmoid_output_0: 3d0bcf4f
/model.13/cv2/conv/Conv_output_0: 3d0ccfd7
/model.13/cv2/act/Sigmoid_output_0: 3d0ccfd7
/model.13/cv1/conv/Conv_output_0: 3cf93bd0
/model.13/cv1/act/Sigmoid_output_0: 3cf93bd0
/model.11/Resize_output_0: 3d389eb3
/model.10/conv/Conv_output_0: 3d5d482e
/model.10/act/Sigmoid_output_0: 3d5d482e
/model.9/cv2/conv/Conv_output_0: 3d3871ae
/model.9/cv2/act/Sigmoid_output_0: 3d3871ae
/model.9/cv1/conv/Conv_output_0: 3d5d4052
/model.9/cv1/act/Sigmoid_output_0: 3d5d4052
/model.8/cv3/conv/Conv_output_0: 3d392c50
/model.8/cv3/act/Sigmoid_output_0: 3d392c50
/model.8/m/m.0/cv2/conv/Conv_output_0: 3d5ee006
/model.8/m/m.0/cv2/act/Sigmoid_output_0: 3d5ee006
/model.8/m/m.0/cv1/conv/Conv_output_0: 3d8a77c1
/model.8/m/m.0/cv1/act/Sigmoid_output_0: 3d8a77c1
/model.8/cv2/conv/Conv_output_0: 3d8858a8
/model.8/cv2/act/Sigmoid_output_0: 3d8858a8
/model.8/cv1/conv/Conv_output_0: 3d5ee006
/model.8/cv1/act/Sigmoid_output_0: 3d5ee006
/model.7/conv/Conv_output_0: 3d206224
/model.7/act/Sigmoid_output_0: 3d206224
/model.6/cv3/conv/Conv_output_0: 3d389eb3
/model.6/cv3/act/Sigmoid_output_0: 3d389eb3
/model.6/m/m.2/cv2/conv/Conv_output_0: 3d5c7732
/model.6/m/m.2/cv2/act/Sigmoid_output_0: 3d5c7732
/model.6/m/m.2/cv1/conv/Conv_output_0: 3d38782a
/model.6/m/m.2/cv1/act/Sigmoid_output_0: 3d38782a
/model.6/m/m.1/cv2/conv/Conv_output_0: 3d37c306
/model.6/m/m.1/cv2/act/Sigmoid_output_0: 3d37c306
/model.6/m/m.1/cv1/conv/Conv_output_0: 3d38d033
/model.6/m/m.1/cv1/act/Sigmoid_output_0: 3d38d033
/model.6/m/m.0/cv2/conv/Conv_output_0: 3cbc136d
/model.6/m/m.0/cv2/act/Sigmoid_output_0: 3cbc136d
/model.6/m/m.0/cv1/conv/Conv_output_0: 3d3b1118
/model.6/m/m.0/cv1/act/Sigmoid_output_0: 3d3b1118
/model.6/cv2/conv/Conv_output_0: 3d8626e4
/model.6/cv2/act/Sigmoid_output_0: 3d8626e4
/model.6/cv1/conv/Conv_output_0: 3cbc136d
/model.6/cv1/act/Sigmoid_output_0: 3cbc136d
/model.5/conv/Conv_output_0: 3d1fcfaf
/model.5/act/Sigmoid_output_0: 3d1fcfaf
/model.4/cv3/conv/Conv_output_0: 3d1e8573
/model.4/cv3/act/Sigmoid_output_0: 3d1e8573
/model.4/m/m.1/cv2/conv/Conv_output_0: 3d1fe9f6
/model.4/m/m.1/cv2/act/Sigmoid_output_0: 3d1fe9f6
/model.4/m/m.1/cv1/conv/Conv_output_0: 3d0cf259
/model.4/m/m.1/cv1/act/Sigmoid_output_0: 3d0cf259
/model.4/m/m.0/cv2/conv/Conv_output_0: 3cad75d6
/model.4/m/m.0/cv2/act/Sigmoid_output_0: 3cad75d6
/model.4/m/m.0/cv1/conv/Conv_output_0: 3d1e8b8f
/model.4/m/m.0/cv1/act/Sigmoid_output_0: 3d1e8b8f
/model.4/cv2/conv/Conv_output_0: 3d385294
/model.4/cv2/act/Sigmoid_output_0: 3d385294
/model.4/cv1/conv/Conv_output_0: 3cad75d6
/model.4/cv1/act/Sigmoid_output_0: 3cad75d6
/model.3/conv/Conv_output_0: 3d1f4d8b
/model.3/act/Sigmoid_output_0: 3d1f4d8b
/model.2/cv3/conv/Conv_output_0: 3d8a8ed6
/model.2/cv3/act/Sigmoid_output_0: 3d8a8ed6
/model.2/m/m.0/cv2/conv/Conv_output_0: 3df899ac
/model.2/m/m.0/cv2/act/Sigmoid_output_0: 3df899ac
/model.2/m/m.0/cv1/conv/Conv_output_0: 3d600600
/model.2/m/m.0/cv1/act/Sigmoid_output_0: 3d600600
/model.2/cv2/conv/Conv_output_0: 3e0798da
/model.2/cv2/act/Sigmoid_output_0: 3e0798da
/model.2/cv1/conv/Conv_output_0: 3df899ac
/model.2/cv1/act/Sigmoid_output_0: 3df899ac
/model.1/conv/Conv_output_0: 3e870ad0
/model.1/act/Sigmoid_output_0: 3e870ad0
/model.0/conv/Conv_output_0: 3e6c9314
/model.0/act/Sigmoid_output_0: 3e6c9314
